<bos>
<pad>
<eos>
<unk>
Y
"
D
f
/
Q
s
'
I
k
4
V
x
A
c
,
N
p
9
[
$
F
h
1
S
u
>
)
K
m
6
X
!
z
C
e
.
P
r
;
]
&
H
j
Ã
3
U
w
@
b
+
M
o
8
Z
#
E
g
0
R
t
=
_
(
J
▁
l
5
W
y
B
d
-
O
q
:
%
G
i
2
T
v
?
a
*
L
n
7
▁t
▁a
he
in
re
▁the
on
▁w
▁s
▁.
er
at
▁,
▁c
ou
or
nd
is
it
▁b
▁to
▁p
en
ing
▁f
es
▁m
ed
▁o
an
▁and
▁in
▁d
al
▁h
▁I
▁th
ar
le
▁of
as
ion
ic
▁n
om
ve
ll
ent
▁re
▁y
▁e
▁be
▁l
us
▁you
▁g
ro
▁is
ct
▁T
ly
▁for
ot
▁that
et
▁on
ow
id
▁ha
ce
ay
im
▁A
ld
▁st
st
▁we
ation
ver
ith
ch
▁he
▁it
ut
▁with
ig
▁'
ra
▁as
▁S
ill
if
▁an
ir
ur
se
▁pro
il
▁wh
▁are
▁have
ol
▁The
am
▁con
ke
▁u
ter
ad
out
ment
▁was
her
▁not
▁C
▁W
ould
ess
▁M
▁com
▁se
ate
pp
▁or
▁ne
▁me
▁this
ge
▁de
▁at
ers
op
ul
▁do
ac
▁ex
nt
our
▁H
▁"
ore
▁will
od
est
▁my
▁su
ant
▁fr
qu
ive
ble
▁can
▁P
▁'s
ort
▁your
▁B
▁le
▁sh
ity
iv
▁ch
ie
▁us
ect
▁wor
▁al
ust
▁so
th
ist
▁from
▁v
res
ies
igh
ain
ud
▁k
▁D
os
art
▁F
▁go
ome
un
▁1
▁2
▁?
▁r
gh
▁ab
▁but
ard
▁lo
king
▁they
▁(
ere
▁)
rou
ase
▁te
▁Th
el
▁E
▁by
are
▁all
um
ip
ure
▁j
ally
▁O
▁L
em
and
▁whe
▁R
▁would
all
pe
▁ad
't
▁comp
▁n't
ight
ther
▁ma
▁up
▁cl
very
▁N
▁has
ime
ide
ci
▁G
per
▁am
▁pl
▁their
▁int
so
cc
▁im
aus
one
ost
▁if
▁kn
▁li
▁bec
iz
ff
▁out
ions
act
ice
▁tr
age
▁about
▁en
ack
▁our
ated
ind
▁:
▁know
▁res
ab
ause
orm
ich
▁In
▁need
▁more
▁like
▁time
▁work
▁man
ast
pt
ail
▁cont
pl
du
▁app
▁one
ue
▁her
▁fe
▁get
▁there
▁any
ine
ag
ok
▁pe
ck
▁his
▁them
▁dis
▁which
▁qu
able
▁We
ence
▁other
ult
▁how
ance
ire
ear
ong
▁em
▁some
ass
▁were
▁J
▁because
ach
form
ign
ri
ame
▁20
▁inc
▁when
▁also
ents
▁had
▁what
▁imp
og
▁It
ople
ans
▁she
▁stud
ations
ber
▁who
ous
▁ta
ount
▁Y
▁un
▁people
lease
▁!
vel
ical
ays
▁This
ite
▁want
▁per
▁ev
reat
▁fo
ry
te
fere
▁hel
ress
nder
▁just
▁help
▁been
▁acc
▁part
ace
▁pr
▁U
▁@
ink
day
ree
▁ag
ough
▁pre
▁K
ose
▁off
▁dif
▁-
ile
ru
ition
ary
▁ar
ings
ord
rough
ial
ia
▁comm
▁could
▁sa
ep
▁new
ild
▁did
▁act
ning
▁see
▁tra
▁sc
ap
▁spe
▁over
fter
▁make
▁year
▁;
▁under
hed
▁sp
▁no
ank
oy
▁rec
erv
▁@T
▁prov
ang
▁add
av
▁co
ark
▁ro
▁into
▁bet
▁He
▁should
▁3
▁only
ces
▁back
▁every
ick
ors
▁inter
ater
ond
▁pers
int
▁att
cial
duct
▁through
▁differe
ob
▁pos
ments
▁As
▁rel
ual
▁very
ject
ens
row
▁ind
▁V
▁inform
▁tw
ram
▁well
fore
▁ass
ting
▁use
cess
ory
▁requ
ak
▁des
ne
cus
▁him
▁bel
▁cons
ish
irst
▁If
xt
lf
pport
ool
▁rep
▁these
▁/
▁think
▁ph
iew
ific
▁exper
nds
▁Wh
▁good
ities
ife
vers
▁Al
ily
▁than
▁inv
red
ever
pect
▁may
▁show
▁sy
▁reg
we
ient
lect
▁person
▁'m
ull
ates
▁way
▁let
chool
lic
▁po
me
▁many
▁after
olog
eth
▁most
ise
▁bo
rit
▁different
▁St
hip
ys
ied
▁then
ange
▁being
ons
gan
ub
▁call
ility
▁two
▁wee
▁start
▁dec
ward
▁i
ract
▁lear
▁first
ffect
ious
other
ple
der
ound
oth
▁che
▁Ch
▁look
▁class
▁mo
ving
▁where
round
velop
ful
▁able
ased
ren
▁day
▁col
uring
ib
▁Please
▁find
▁bl
lud
▁school
ade
own
▁ke
ved
ating
▁take
ible
▁now
▁bu
▁does
▁information
stand
▁How
ience
uch
▁inst
▁life
ics
wn
▁feel
stem
iness
llow
any
▁conf
▁ac
▁You
▁iss
▁bus
ues
▁fin
ices
les
hen
▁its
▁pat
▁sub
▁team
ft
▁develop
▁week
▁serv
ative
ince
arch
▁rece
▁please
▁read
▁email
▁such
▁commun
ph
ced
▁going
▁fam
iss
alth
▁product
ict
▁meet
▁still
▁much
▁rem
▁process
▁ra
get
▁students
▁great
▁high
▁4
▁5
▁includ
ident
▁set
▁child
▁though
▁understand
▁comple
roup
ian
▁str
▁order
▁right
▁even
▁There
tain
▁happ
▁fl
▁same
▁quest
▁before
▁lead
erm
▁care
▁used
▁gu
▁det
li
▁mon
00
▁som
▁form
▁cur
▁system
▁An
als
led
uc
▁pres
▁import
▁prog
▁each
▁ob
▁trans
▁end
▁made
ood
▁resp
▁gra
▁num
ustom
view
ction
▁belie
▁med
urn
▁For
▁follow
▁sm
itt
▁av
▁said
cept
ention
▁long
ize
▁ed
mer
▁op
nce
chn
self
▁sk
▁years
▁pay
ef
erest
▁sec
rent
ives
blem
old
ave
ures
▁own
▁exp
▁exam
ered
▁plan
thing
▁custom
▁cre
▁again
▁business
▁Thank
▁really
▁sign
▁My
▁She
ational
▁problem
▁dat
▁appro
▁rese
▁working
ts
▁ref
alk
▁send
▁last
ween
▁organ
▁both
▁interest
▁br
oking
▁ask
rib
▁ent
ower
arly
▁best
iving
oc
▁health
its
▁support
▁between
cuss
▁project
▁mod
ality
ying
▁aw
ually
▁down
ty
▁mark
▁adv
▁group
cy
▁gen
▁ins
ec
▁next
..
read
▁provid
ner
▁things
▁count
ork
▁They
▁better
▁conc
▁home
gg
ness
▁pol
▁those
▁company
▁lot
ploy
▁201
▁char
ution
▁inf
▁account
▁art
▁cor
▁discuss
▁poss
ont
▁sure
▁cour
ways
▁while
▁fact
hes
▁val
▁change
ath
▁sur
▁What
▁ide
▁la
▁important
ived
▁world
▁today
▁prof
▁give
ng
▁min
ather
▁So
▁mem
▁experience
▁come
▁around
ety
▁main
▁def
▁since
▁car
▁effect
imes
▁data
▁program
ized
▁family
up
ething
▁check
▁job
ix
▁point
▁result
▁provide
▁using
▁pur
▁during
▁When
▁However
▁play
und
▁say
▁techn
ale
▁list
▁chang
▁sim
▁expl
▁Un
▁number
▁12
▁vis
ell
▁incre
ason
▁real
▁learn
▁require
ately
ew
▁ca
ited
line
▁got
▁something
▁here
ached
▁hop
ric
▁love
▁%
▁aut
ten
▁loc
▁always
▁frie
▁place
▁cle
▁put
ove
▁beh
▁test
▁found
▁19
▁too
ines
▁few
▁current
▁6
ock
irm
▁partic
▁research
▁sol
▁social
▁sit
▁hand
▁keep
▁due
▁market
▁pa
io
kes
ven
ivid
▁month
▁Fr
ering
▁allow
▁$
▁writ
▁report
ization
▁'ve
ves
▁pass
▁employ
▁sl
gy
ages
▁wom
ouse
▁educ
▁Also
▁another
▁avail
▁ext
ern
ology
▁Ac
ared
ruct
ills
▁design
arent
▁needs
▁why
▁contin
▁Re
▁ret
ining
ism
▁request
▁ty
tern
▁consid
▁case
de
gin
irect
▁book
iron
▁sent
itive
▁'re
▁Can
▁top
▁At
ular
▁believe
▁hard
▁gener
▁post
▁hum
iven
▁level
ien
▁done
▁10
▁open
▁impro
▁having
arm
▁gl
▁var
▁cou
▁disc
▁dr
ior
ession
▁mat
▁wanted
▁'ll
▁children
ision
▁7
ee
▁prev
▁present
▁...
▁dep
▁cost
ants
▁full
▁8
▁individ
▁looking
▁spec
ger
▁grow
▁Do
▁activ
▁Ad
ccess
▁fun
pportun
▁issue
▁three
ted
▁pract
▁without
▁doing
ute
▁never
ically
▁upd
▁web
▁must
▁study
▁opportun
fort
ature
ros
▁within
▁env
▁eas
▁9
▁And
▁days
▁regard
▁less
ients
▁individual
nect
▁state
▁perform
▁build
air
urther
ivers
▁cult
bers
vern
ody
pr
bo
▁&
urs
▁might
▁name
▁contact
▁dist
▁questions
▁talk
ready
cu
▁anal
▁intern
work
▁reason
▁rest
amp
▁focus
▁unt
oney
▁hour
▁et
▁opt
▁On
ittle
ead
▁wr
▁example
▁But
▁review
▁word
▁already
acher
▁available
ems
con
ural
ital
▁success
▁cho
ined
▁Is
ised
ars
▁pub
▁ser
▁possible
▁To
▁manage
▁fut
▁environ
▁ben
▁Sh
▁student
▁detail
▁stand
▁communic
▁dem
▁meeting
ake
▁complete
▁run
osed
▁kind
▁free
ledge
▁little
▁thought
▁getting
less
ense
▁tell
▁direct
▁Acme
▁course
tend
▁service
▁Amer
ah
▁based
▁addition
▁fac
▁food
▁Q
▁power
▁parent
▁old
▁future
▁prom
▁el
▁eng
ify
▁govern
▁After
▁however
▁making
▁others
▁Z
▁Be
▁bra
▁contro
▁applic
ases
▁attached
▁until
▁forward
▁De
▁small
▁connect
▁With
▁relations
sw
ash
▁big
rip
▁access
▁All
▁room
ier
▁mor
▁water
ield
▁hope
▁second
be
▁money
▁soci
ording
▁received
▁cer
ait
▁environment
ote
▁issues
com
▁proper
ability
sel
▁lar
▁skills
▁Com
▁move
▁teacher
▁supp
▁cent
▁Pro
▁learning
▁someone
ets
▁thing
orth
aff
ential
err
▁Americ
orrow
▁customer
▁docu
ffic
▁view
pend
-t
▁200
▁self
▁di
ration
co
▁development
▁amount
▁ident
▁happen
▁equ
uation
▁creat
▁women
▁tom
▁mind
atch
▁pop
lement
▁address
▁question
lish
▁term
▁benef
▁confirm
▁Te
▁try
▁times
lo
aring
▁become
▁knowledge
▁es
ries
orry
▁head
▁invest
ask
ugh
▁anything
▁miss
▁community
▁mean
▁past
ross
▁ear
▁expect
▁relationship
end
ters
▁fil
▁respons
ton
▁mom
man
▁behav
▁cr
▁est
▁create
▁X
▁corre
icle
▁Ex
▁affect
ists
▁went
dition
fer
▁That
▁answ
▁house
▁specific
▁mess
r.
▁started
az
▁share
oint
▁turn
34
▁bre
▁bro
ified
ron
-s
▁education
▁toget
▁ve
▁const
▁together
▁services
cing
▁prot
isk
▁area
rist
▁event
▁occ
▁human
▁away
▁improve
ished
▁government
ina
▁left
▁arr
▁30
▁webs
▁further
▁below
▁vide
▁called
▁office
▁assist
▁manag
▁meth
▁mention
▁needed
▁particip
ug
▁given
▁sal
ins
▁client
reen
▁patient
▁No
▁friends
▁charact
▁One
ully
ently
▁cap
▁begin
ken
iversity
▁once
pping
▁imm
▁pm
conom
▁tomorrow
wards
ards
▁asked
▁side
▁invol
▁told
jor
ids
▁law
▁met
ley
▁live
▁public
ling
eng
iqu
ember
▁Ind
▁country
▁mus
▁impact
▁trying
▁model
▁management
▁idea
ann
▁short
▁par
▁These
ggest
▁story
▁method
▁pain
▁works
▁ap
land
ination
ney
▁everything
▁phone
▁strate
▁diff
ulation
▁mult
▁hours
▁everyone
▁explain
▁changes
▁agree
▁treat
▁auth
▁makes
▁role
▁suggest
ources
lu
▁desc
▁strong
aching
▁came
▁soon
▁personal
▁taking
-c
▁caus
▁Con
▁following
▁phys
pped
mend
▁position
▁step
▁dra
▁parents
▁Yes
▁major
▁gr
▁oper
joy
▁deli
▁profession
▁bring
▁econom
▁wait
▁prop
▁training
UR
▁control
over
ories
iday
▁members
▁mater
▁saf
▁bas
▁cop
▁quality
▁stay
▁hist
▁Ar
▁opportunity
inking
▁society
▁happy
-m
▁lab
▁non
chie
▁indust
▁body
cially
ency
▁products
itions
▁date
▁polic
▁writing
ees
no
idence
▁stat
▁paper
▁dev
▁Thanks
▁hig
▁chall
angu
▁offer
▁lim
aking
▁myself
inal
▁Se
ript
▁concern
▁pot
▁colle
oss
ired
here
▁link
▁prep
▁means
▁website
ither
▁ey
room
▁compet
iod
-b
▁assign
▁correct
▁took
▁low
▁online
▁experien
▁enjoy
▁war
▁night
lling
▁attend
▁regarding
▁yet
▁shows
▁leg
▁staff
▁media
▁field
▁Mon
▁include
▁da
▁ens
▁light
▁elect
▁Me
▁neg
▁including
ibility
▁understanding
▁US
rop
▁enough
▁signific
▁sche
56
ret
▁accept
▁adm
▁Sp
icult
▁mar
▁return
▁material
▁increase
▁against
por
ator
▁men
ured
▁Cl
▁thank
▁God
▁enc
▁achie
▁problems
▁11
▁risk
▁receive
▁subm
▁results
uck
▁exc
▁young
ilities
ference
▁camp
-f
▁Mar
▁wond
orn
ides
duce
▁etc
▁Eng
01
ester
hing
▁'d
▁text
▁along
ource
▁langu
aut
eg
ax
utes
ird
▁mot
let
▁page
▁four
ream
▁large
ged
ership
▁details
▁recom
▁ess
aw
▁provided
▁technology
▁consider
▁sum
▁Acc
▁age
▁cred
▁aud
though
fortun
▁quick
▁special
▁tre
▁difficult
▁required
▁morning
▁period
dule
▁value
irl
▁interested
cle
▁collect
ilar
▁hold
▁face
▁del
action
side
▁organization
▁sever
ode
ental
▁positive
ided
▁previous
back
▁certain
▁15
▁bad
▁often
▁visit
▁task
▁appre
▁author
▁sw
▁super
▁tem
▁influ
ably
▁feed
▁line
raph
▁seen
▁price
osp
pecially
▁phot
ances
ising
▁crit
▁land
▁typ
▁interview
▁close
unt
▁video
port
▁deal
▁Our
ancial
▁mother
▁application
▁Pl
rap
▁friend
▁customers
▁effective
br
▁words
▁Bl
▁significant
▁comes
▁type
▁situation
▁final
▁recommend
▁above
▁repres
▁plac
ert
▁log
▁[
oice
▁mentioned
▁necess
▁culture
-p
▁tot
▁store
▁bit
▁Ph
▁speak
alking
▁later
▁fore
▁activities
▁coming
▁document
▁determ
▁Christ
anies
▁whole
▁fre
▁]
▁article
▁character
onse
ysis
▁key
▁several
▁defin
mark
ogn
▁communication
selves
▁payment
ames
▁init
▁appreci
▁continue
▁currently
▁site
URL
▁months
rior
ral
aster
URL@
fortunately
▁@URL@
ification
▁air
▁Hi
▁far
▁May
▁ever
ched
▁Sy
ison
▁actually
ression
cell
▁purch
▁Let
artment
▁vari
▁especially
▁implement
lev
aim
▁reading
outh
ones
▁mid
app
▁similar
▁employees
▁language
▁tool
▁ways
▁bi
▁performance
▁meas
▁break
▁protect
▁created
▁pict
iple
ional
▁taken
inc
▁leave
▁struct
▁record
▁sho
▁reach
▁card
▁update
▁0
▁port
illed
▁either
enn
▁schedule
sy
▁New
▁contract
▁repl
▁consum
▁practice
-d
▁sci
▁ability
▁select
soci
▁18
▁pick
elt
▁vol
▁net
▁patients
▁seem
▁cause
▁clear
▁instead
▁content
▁assess
▁rate
▁purp
▁towards
asing
▁comput
▁local
yle
▁thinking
itted
nter
▁higher
▁fail
▁response
▁early
▁decision
lus
par
fect
▁message
▁ver
▁apply
▁convers
▁various
▁related
▁sing
▁sorry
att
▁wo
▁obs
cer
way
▁object
most
▁girl
na
orts
▁Some
▁living
▁else
ware
▁aware
ury
▁priv
▁least
▁companies
▁common
▁subject
▁polit
▁says
▁learned
▁sat
▁countries
▁accom
▁pack
▁soft
▁hear
▁user
▁buy
▁cal
▁building
▁exist
▁answer
▁hy
urity
▁norm
▁travel
▁Ne
▁lives
▁cell
ots
▁game
▁jo
▁saw
▁whether
▁American
ush
adem
load
▁walk
▁respect
▁industry
uly
▁Res
▁Friday
▁history
mber
▁goal
ramm
ape
▁gain
▁prob
val
▁black
ique
▁prior
▁ensure
▁analysis
alf
ift
▁orig
of
▁contrib
▁emot
▁Monday
ott
▁Just
▁behavior
▁ener
▁wrong
ires
▁heart
ister
▁space
▁fall
▁ut
ilit
uro
▁seems
▁intro
▁cover
▁weeks
▁areas
▁letter
▁worked
-1
▁across
ued
▁arg
omes
▁note
unch
▁eff
▁felt
▁Man
▁easy
▁stop
▁write
▁kids
▁Car
▁professional
oring
iter
▁ideas
▁ready
▁concept
s.
▁famil
▁encou
atic
▁Act
▁tried
▁While
ission
ians
utions
▁function
▁resources
▁financial
▁fav
ats
come
▁approach
▁gave
▁English
ery
▁Since
ried
▁represent
▁By
▁remain
▁among
iol
ume
str
▁Af
ane
▁known
▁Jo
▁offic
▁Ste
ium
▁pie
▁file
▁college
ctor
els
▁Your
▁Well
▁matter
etimes
▁vers
▁couple
▁music
▁ann
▁clean
▁claim
▁states
▁conduct
▁Mr.
▁white
▁watch
▁policy
▁items
▁sense
izing
▁fix
▁deg
cent
▁additional
▁describ
▁rather
yn
▁challeng
▁Em
▁inde
ences
▁looks
▁According
go
▁general
▁wants
▁changed
▁tax
▁father
▁tar
▁medical
▁anim
osing
▁sex
▁potential
▁associ
ges
▁perfect
▁sales
cel
▁energy
▁individuals
▁achieve
▁events
▁fig
▁ill
ips
▁opin
▁growth
▁press
▁necessary
▁attention
ER
▁feedback
▁beaut
▁analy
▁Le
ceed
▁front
▁Ab
edi
▁minutes
▁action
▁city
▁spend
▁news
▁hot
ene
▁Now
oid
▁added
▁clients
▁moment
78
▁chance
▁late
-up
▁fit
▁Here
▁indic
▁themselves
▁lack
▁outside
▁almost
▁groups
▁completed
▁eval
▁coll
ief
ules
acy
vent
reet
iting
▁throughout
▁ant
▁death
▁goals
▁Then
▁sym
nes
ns
ruction
▁Sc
▁helps
▁hon
ump
icro
▁discussed
▁copy
▁stress
▁appear
000
illion
▁strateg
istic
▁red
▁bank
▁physical
▁treatment
▁Or
▁respond
▁From
more
vert
▁eth
ological
duced
▁marketing
for
sych
▁negative
▁rev
▁nat
▁abs
▁longer
▁decided
cking
now
▁reflect
oke
▁considered
▁cond
ored
▁estab
▁Am
▁maintain
▁dise
▁career
▁sem
fully
▁contain
▁sle
▁err
▁University
▁involved
▁multiple
ude
▁During
▁His
▁five
▁separ
▁anyone
▁fund
▁remember
dle
ze
ples
▁nothing
ches
▁sam
▁teachers
▁purpose
ption
▁Fe
erg
▁dom
▁Although
nces
reng
ologies
▁bar
▁Bo
▁usually
▁planning
▁glob
ially
ograph
▁aspect
▁viol
▁total
▁boy
anced
▁_
rug
▁Not
▁gradu
▁target
▁opp
uge
▁terms
▁factors
▁relig
/1
▁solution
▁credit
▁bal
▁security
▁choose
cher
ij
▁brand
▁medic
▁table
▁ge
▁looked
▁film
▁according
▁entire
hold
ray
une
▁organiz
▁hosp
▁dig
▁likely
ables
imate
▁Are
fficient
▁eyes
▁status
▁First
▁tou
▁ago
▁grade
ma
aving
▁recogn
uff
▁cir
▁Therefore
▁Gramm
▁color
▁paid
▁true
▁size
▁Once
▁bed
▁integ
▁population
▁points
▁option
▁opportunities
book
▁ord
▁prim
▁Ke
▁beginning
ises
▁enter
▁giving
arr
▁aff
▁commit
by
▁streng
▁successful
▁code
olution
▁win
kay
oor
▁North
▁takes
▁cut
▁stated
▁comb
9@
7@
▁encoura
▁El
2@
▁Grammarly
▁depend
3@
iced
▁202
5@
▁#
ford
▁talking
▁Col
▁woman
8@
▁appreciate
1@
4@
Water
▁plat
6@
▁classes
lex
▁@T5@
▁GrammarlyWater
▁@T7@
▁@T1@
▁@T3@
▁@T6@
▁@T9@
▁@T2@
▁GrammarlyWatermark
▁@T8@
▁@T4@
▁Co
-y
▁listen
▁24
▁studies
▁dam
▁search
▁evidence
▁activity
▁included
▁extra
abor
▁helped
▁ones
▁1234
▁projects
▁behind
▁Bra
▁therefore
▁z
▁network
ground
▁tick
▁admin
▁Fin
▁topic
irt
▁production
▁More
▁trust
▁express
▁25
▁leadership
▁knew
eral
▁provides
itely
▁self-
ught
▁Bec
put
ding
▁stru
ober
/2
▁La
▁single
isf
▁install
irth
▁jour
empt
▁16
▁goes
ille
▁box
▁systems
▁daily
IN
▁difference
use
sc
▁bud
▁engine
▁location
▁observ
den
▁interesting
agn
▁lower
▁upon
vey
light
gra
lier
▁academ
▁computer
care
▁mov
▁nurs
ilt
urope
▁extre
▁directly
ivity
▁wind
▁feeling
▁discussion
▁sell
▁percent
▁liter
▁saying
▁occur
▁probably
▁quite
▁member
▁!!
▁14
▁Jan
▁updated
▁Int
▁TH
ensive
xim
▁comfort
▁Afric
▁drug
▁nice
▁heard
▁half
-year
▁dou
▁door
ox
asons
▁gives
ik
ription
▁benefits
oud
▁platform
▁cand
▁cra
-based
▁manager
▁via
▁print
ounds
▁providing
ators
▁property
▁13
▁progress
▁appl
▁Pe
urance
▁psych
▁experiences
▁department
▁Every
ope
▁Europe
▁active
▁sched
▁users
▁ple
isions
▁image
▁fem
▁lost
▁base
▁section
▁became
▁Oct
erc
▁conversation
ursday
ned
to
ites
atures
▁cy
▁Because
▁meaning
▁Im
▁17
head
▁delivery
▁mail
AT
▁developed
▁waiting
▁wish
▁safe
▁blood
▁effects
▁demon
iet
▁written
-h
▁*
▁types
▁perspect
▁hands
▁maybe
▁fight
▁cases
▁economic
▁demand
▁particular
hood
▁Pr
izz
▁100
▁approp
▁sometimes
▁prevent
▁motiv
▁creating
just
roll
aps
▁happened
▁Aug
enc
verage
▁qual
▁values
▁ur
itch
lished
▁nature
▁strugg
rie
▁fast
▁clin
▁arm
▁Even
▁shown
verse
▁programs
30
▁pret
ival
riate
▁Unfortunately
▁Qu
ler
▁..
▁promot
▁teaching
illing
▁sens
▁dest
▁structure
▁fine
▁Go
▁rights
▁Stan
▁caused
▁political
ana
▁definitely
▁investig
xic
▁Dr.
▁Wed
▁cit
ST
▁gets
uf
▁third
▁running
▁mob
uth
rict
▁consist
▁favor
▁behavi
▁software
▁style
▁Mr
▁jud
▁Sorry
rate
▁flow
iful
▁simple
▁Des
▁avoid
▁minim
▁lay
▁documents
▁fram
▁allows
ses
▁appoint
▁ce
▁Why
▁sleep
▁extreme
▁inside
▁China
▁transfer
▁Per
▁fa
▁global
▁attempt
▁exact
▁immedi
▁allowed
▁Tra
ON
▁options
▁Thursday
▁classroom
rew
▁party
▁weeke
▁pull
▁strategy
ipment
▁board
▁item
▁mach
▁natural
▁source
▁asking
▁trip
▁mental
▁displ
urt
▁satisf
▁increased
▁draw
▁unit
erson
▁suff
▁mass
▁standard
▁util
nov
▁Another
▁screen
▁Mor
▁schools
▁fu
▁drive
▁completely
▁near
▁mis
ster
istics
▁path
▁requirements
▁reasons
▁degree
sequ
▁Lo
▁opinion
ule
▁pretty
urch
▁safety
▁budget
▁App
▁leader
▁50
aur
▁deb
▁stra
▁hol
ought
▁sound
▁uses
▁shared
▁purchase
▁audience
▁theory
-time
▁firm
▁choice
▁conflic
atory
▁steps
▁moving
▁deep
▁loss
▁yourself
cul
▁tour
▁picture
oo
▁Joh
lusion
▁began
▁range
▁Net
▁actions
duction
▁lif
▁bab
hel
▁overall
-2
▁includes
▁conditions
▁Sch
▁poor
▁track
▁six
▁exec
iment
▁advant
▁parts
▁families
aging
▁touch
oph
▁obtain
ai
▁Tues
rought
▁deliver
▁Inst
▁quickly
▁charge
▁starting
term
▁ste
▁background
▁Intern
▁easily
aign
▁veh
▁Will
eds
used
▁summer
▁employee
▁autom
▁dead
▁refund
▁birth
▁unique
where
▁influence
nesday
aged
gest
▁amaz
▁adult
▁remind
▁reference
▁proced
ike
▁fire
▁decre
▁independ
▁prefer
▁benefit
▁sett
▁helping
▁thoughts
▁21
▁expected
▁condition
▁normal
.S
gn
ring
ops
apt
▁dream
-in
▁August
▁compl
▁himself
efully
▁October
▁host
ging
▁setting
▁schedul
▁therap
.1
▁Could
▁unable
▁informed
▁yester
▁submit
▁Her
▁except
astic
wise
▁mist
▁international
▁levels
▁sending
▁Che
▁regul
▁Would
▁coun
▁stage
▁materials
▁Mc
▁Techn
▁wonder
,000
▁beautiful
▁Through
icles
▁instruct
▁yesterday
ply
▁demonstr
▁middle
▁bott
▁willing
▁Many
▁emb
▁tradition
iring
oming
▁wondering
▁slow
▁session
urse
▁cert
▁dri
▁Further
▁Su
▁finish
▁showing
▁original
▁essential
▁engage
▁Stud
▁guys
▁guid
▁huge
ony
lt
▁interact
▁drop
▁weight
.5
▁pred
imin
▁limited
ming
▁Most
▁>
▁block
▁jobs
▁Any
▁wall
word
ship
▁Tuesday
aches
▁distrib
▁strength
▁remo
▁showed
▁version
▁brought
▁statement
▁candid
▁costs
cd
▁Pet
reg
enior
▁requested
▁Gen
▁plans
▁Wednesday
▁foot
▁instit
▁00
▁Rus
▁shi
▁Ag
▁books
▁vac
▁hospital
▁million
ctions
▁center
▁Air
▁conv
ung
▁responsible
▁legal
▁argu
▁academic
uted
▁campaign
▁administ
▁belief
▁led
▁advert
▁reduce
tainment
▁brother
aves
▁Tr
▁ment
▁compared
▁appropriate
oses
▁Black
▁disease
itor
llo
▁recent
▁testing
▁ele
ension
▁eat
▁assessment
▁importance
ks
ufact
▁town
▁199
▁voice
▁Enter
▁Pa
▁critical
▁methods
▁science
▁Sat
ha
iar
▁seeing
ateg
izes
▁non-
▁trou
▁Br
▁notice
▁regist
▁complex
apan
▁spread
▁princ
▁Sec
bert
▁features
▁ten
▁healthy
▁identify
▁enh
ners
▁assignment
ius
▁tools
▁resear
▁fair
ura
▁Over
▁apolog
▁error
▁numbers
▁citiz
▁held
▁developing
ows
era
▁brain
▁skin
▁road
▁partner
▁Feb
▁sold
▁private
oms
▁piece
▁relev
▁primary
resh
▁ded
▁swe
▁attack
ball
▁div
ales
▁weekend
▁Dis
▁cross
▁Oh
▁highly
▁Sept
▁increasing
▁aim
▁noticed
▁heav
▁measure
▁score
▁Tw
▁harm
▁fully
erve
▁average
▁serious
▁insurance
yp
▁modern
che
othes
ordin
ED
▁Hey
▁strategies
▁cultural
itation
▁Bel
▁Good
▁subst
▁excell
iction
▁internet
af
▁lat
▁effort
▁collabor
▁decisions
▁applied
bor
pre
▁challenges
▁son
▁placed
▁basis
▁spoke
▁Us
▁dog
band
▁emp
▁hair
rast
mn
▁basic
▁perspective
-term
▁games
▁Japan
▁22
itude
▁reports
▁Micro
▁earlier
▁Apr
▁relationships
▁turned
▁exerc
▁itself
▁recently
▁amazing
uary
reed
▁rad
▁invoice
ese
well
▁adjust
enty
▁floor
▁incor
OR
▁clos
▁determine
▁worth
▁pressure
▁missing
ughter
vis
umb
zy
▁associated
▁Off
iles
▁constant
atives
▁PM
▁balance
▁figure
▁reply
▁join
eria
▁Aut
EN
▁playing
▁quote
-l
▁reported
▁save
akes
▁national
▁categ
▁helpful
▁Mexic
▁innov
▁moved
▁places
rated
-w
▁income
▁meant
▁Comp
▁Reg
▁Cent
▁Gra
▁resol
▁finally
▁valid
amed
▁grand
▁situ
ivil
erous
▁Serv
inese
hib
iation
▁tasks
▁volunt
▁guest
▁People
▁simply
▁eye
▁India
▁ground
5678
rote
▁wife
▁Canad
▁wide
▁Cor
reens
▁Have
▁imag
▁concerns
icing
▁popular
▁tend
▁rules
▁easier
ES
▁Free
▁Comm
▁weak
▁movie
▁mobile
▁digital
enge
▁Fl
▁perm
osal
▁transport
▁gone
ager
ustain
.2
▁continu
cember
ulf
▁attract
▁evalu
set
▁responsibility
▁Kind
▁tit
▁workers
▁purs
ibly
▁bur
▁tim
▁leaders
▁Val
▁organizations
▁lic
▁neigh
kin
ex
nal
▁focused
▁threat
▁IT
▁dark
▁teach
▁semester
apter
AN
▁display
▁presentation
▁stuff
▁U.S
pper
iver
body
ino
board
▁Mo
▁passion
house
▁stock
▁offers
▁pan
▁Aust
▁manufact
▁Ed
urday
▁fee
▁device
rel
▁disp
▁fear
itable
ica
▁June
▁rent
order
▁Cur
inity
▁hit
son
▁extremely
▁busy
▁spir
▁attach
▁economy
▁laws
ech
▁load
▁assistance
▁delay
▁rout
▁match
▁doctor
cast
▁built
▁agreement
▁song
▁season
▁forg
▁okay
▁Face
▁summ
▁Chinese
▁Gr
▁equipment
▁leading
▁insp
vious
▁growing
▁temper
▁animals
▁hus
au
raft
▁acqu
▁replace
fered
▁chat
▁confident
▁wrote
▁December
▁participants
▁relevant
▁restaur
▁hor
▁initi
▁March
kl
cdef
▁excited
▁existing
▁dress
▁Gu
▁connection
▁leads
▁force
▁July
▁Att
face
▁ahead
▁images
ountain
▁practices
▁refer
▁Bro
bs
lin
▁23
▁Ass
▁requires
▁clar
▁sch
AR
like
▁healthcare
ively
▁September
mas
▁affected
▁surpr
▁aspects
▁circ
▁court
▁presented
▁Brit
aly
▁sil
▁checked
▁capt
▁alone
het
▁Americans
▁ticket
rom
▁fill
▁April
▁forms
▁survey
▁frequ
▁Last
▁internal
▁consult
▁police
chan
▁South
▁cat
▁solutions
▁changing
▁smart
▁Cal
pite
▁204
▁January
▁Nove
▁honest
▁compon
▁sus
▁Did
▁green
▁206
▁Ro
▁Ant
▁stories
▁arrange
▁Sw
▁church
▁husband
▁experienced
▁diagn
▁Bu
▁oil
▁sustain
▁farm
▁mix
▁notes
▁trade
ny
▁Wor
▁208
▁thanks
▁truly
▁cam
▁scheduled
▁emails
▁passed
▁sto
▁appointment
ruary
airs
▁209
▁talked
▁cru
▁initial
▁surv
▁located
▁appe
▁altern
▁sharing
force
▁unfortunately
▁afterno
▁spent
▁Bar
lation
▁proceed
▁girls
▁November
▁don
▁efficient
▁challenge
▁yes
▁train
▁Other
▁scient
omen
▁signed
▁Kindly
▁shall
▁ID
▁realized
▁expand
iff
ights
ducing
ext
▁capital
▁click
▁useful
▁thus
ata
time
▁28
▁corpor
▁reve
▁Health
▁finding
▁immediately
▁supposed
▁sn
▁emerg
▁vict
▁researcher
▁movement
ios
▁Saturday
ously
▁esc
▁Moreover
iding
▁February
▁milit
▁Germ
▁kept
▁26
▁dont
tion
ancy
▁Part
▁chem
▁policies
▁Ber
▁freed
▁high-
▁actual
▁clearly
▁pictures
▁separate
ials
oun
▁reality
▁designed
▁traditional
▁carry
ails
▁info
ald
▁cele
▁upload
▁establish
▁university
▁comfortable
▁40
▁speaking
▁excellent
▁ho
▁bag
▁volunte
OT
▁baby
▁Sund
ifying
▁technical
▁advance
▁complain
rs
odes
arily
▁approval
▁San
▁School
anc
aling
▁Star
▁afternoon
▁cash
▁gender
cean
gen
▁pattern
lear
▁Hello
▁dire
▁scen
IT
▁supply
▁31
-to
▁Spr
idents
▁2018
▁arch
▁--
▁plant
venience
▁inj
▁27
cl
▁sample
▁taught
ded
▁hous
▁courses
▁African
▁conclusion
▁advantage
▁doll
▁photos
▁War
▁ep
▁causes
▁cancell
▁Ge
▁context
▁lunch
▁dang
▁cool
▁wel
▁serve
▁203
▁limit
oper
▁feature
▁older
yond
▁realize
▁speech
ki
▁regular
▁Dep
▁conflict
▁graph
▁AB
▁explained
▁rates
▁essay
▁guess
▁communicate
▁Pres
▁sexual
▁situations
-st
▁Entertainment
▁citizens
eah
▁becoming
▁instance
▁warm
ended
place
▁anx
▁System
▁assum
▁variety
-old
▁comments
▁lesson
▁characters
AP
▁optim
ronic
▁Office
lled
▁Due
▁Current
rim
▁Don
▁dad
atever
▁vehicle
▁Mart
▁offered
▁pleas
LL
hol
▁immig
▁Rad
▁expert
▁approved
▁highlight
▁although
▁sources
▁205
▁lose
▁adop
▁Furthermore
▁followed
▁truth
▁majority
▁207
etic
▁accompl
▁files
▁submitted
▁daughter
▁visual
▁Cont
des
▁processes
▁den
lder
▁Ven
▁glad
▁sort
▁teams
off
iable
ened
▁mechan
▁ton
▁kid
▁sports
▁receiving
▁loved
rown
▁ran
▁Rep
▁exch
▁master
▁born
▁emotional
▁machine
▁AM
▁explore
▁finished
▁29
▁consequ
▁U.S.
▁sounds
the
▁ter
▁produce
▁extend
▁favorite
▁Group
▁differences
▁decide
equ
▁standards
▁accur
▁Of
▁reven
▁flu
▁package
▁drink
▁Tod
iency
▁female
▁speed
phas
▁prepared
▁factor
▁accounts
▁adapt
IS
▁dut
▁Addition
▁hotel
▁civil
▁quant
amb
▁ball
▁driver
leg
234
▁nurse
isation
mod
▁nation
ville
▁Span
▁traffic
▁Inc
▁calls
▁mostly
▁leaving
amet
iques
▁guide
▁blue
▁En
ties
▁labor
rest
ication
▁dro
▁pun
▁mer
▁feelings
▁well-
▁advice
▁princip
▁prepare
ivered
wh
▁Sunday
▁direction
▁humans
▁Austral
▁cry
▁cancer
▁military
▁Ry
▁release
▁peace
▁handle
▁server
▁din
▁starts
arter
▁apologize
ek
▁Bus
coming
▁becomes
ection
▁ign
▁sad
▁spirit
▁nursing
box
▁orders
▁knows
▁rele
▁conducted
▁City
▁nut
nergy
▁AN
▁surround
hens
▁ang
▁sister
▁Pat
▁identity
yl
▁greater
▁cells
▁ult
▁kindly
▁Met
▁happens
▁dates
iveness
▁chose
▁manner
▁x
▁devices
▁cold
▁bill
▁listed
▁Out
▁kit
▁creative
▁exactly
▁reached
▁solve
▁transform
▁toward
▁encourage
▁sheet
cious
ira
▁photo
▁sun
▁catch
▁profile
▁concent
▁wear
▁freedom
▁applications
▁maxim
▁commer
▁mag
▁sympt
rant
quare
bol
enses
▁regards
▁breat
▁participate
▁keeping
▁Som
▁connected
▁investment
oting
▁journey
ellig
ps
▁capac
▁emphas
ibilities
▁pus
▁lines
▁flex
▁elements
▁Pre
▁minor
▁remove
idge
usion
▁Spe
▁Ms.
▁Bur
▁Each
▁race
▁Red
ening
ider
ked
icon
▁violence
▁fresh
▁broad
▁religion
▁hearing
▁chann
▁educational
ta
▁therapy
▁examples
▁forget
▁agreed
▁damage
▁fulf
▁brief
▁Ob
▁seemed
-year-old
▁Sir
▁Wil
▁records
▁closed
▁feels
▁counsel
▁delivered
▁123
▁checking
gment
▁schol
▁Ral
eed
vin
▁ship
hest
▁Finally
▁impl
oul
▁calcul
icial
▁evening
nding
▁enjoyed
abilities
▁knowing
▁male
▁+
▁vision
.0
rd
▁improvement
osis
▁disapp
▁worry
▁Both
▁businesses
ternal
IC
▁Energy
ita
OU
▁compar
▁Activ
▁region
▁continued
encies
▁Har
▁watching
▁Second
▁experiment
▁shipping
ker
▁mission
▁afford
▁Today
vere
▁environmental
▁Great
▁Sim
▁Before
▁European
▁core
▁implementation
▁properly
▁whatever
sec
▁missed
ferences
ands
▁skill
▁coff
▁videos
new
esides
▁concerned
▁reserv
▁gun
▁meetings
▁repe
▁confirmed
▁TV
▁roles
▁chapter
iety
▁techniques
▁series
ancing
▁efforts
▁behaviour
▁format
rupt
aries
▁Main
▁hyp
▁literature
▁clinical
▁und
bit
▁conference
▁discount
▁Currently
▁compre
▁ban
▁kill
▁filled
▁proposal
▁Up
vered
▁Sur
▁communities
▁established
▁Sing
osition
zz
▁prices
▁earth
▁selected
haps
▁interp
▁Med
▁putting
▁foreign
hem
▁Christmas
▁argument
▁advise
▁identified
▁crime
▁Rec
▁Equ
▁math
▁THE
▁uns
.4
▁lots
▁funds
▁Mrs.
▁double
▁pray
i-
ara
▁latest
▁ir
▁histor
▁club
ength
▁react
▁af
▁pros
▁gas
▁Green
comes
▁straight
▁construction
▁successfully
▁Street
▁AS
yer
▁promote
▁equal
standing
essor
ctors
▁description
rum
▁happening
aced
▁fixed
▁herself
▁pages
iling
▁IN
▁unless
▁incon
▁exercise
▁novel
▁collection
▁long-term
▁accommod
▁Gold
▁weather
▁pen
▁Mary
▁comment
iate
▁beyond
AS
▁proposed
▁International
▁West
▁Additionally
▁Canada
orp
▁everyday
▁owner
56789
0s
▁evaluation
▁guy
ban
▁sick
▁youth
▁played
▁Sm
▁reaching
▁tur
▁ack
▁shift
olute
▁Bay
▁awareness
▁celebr
uable
▁accepted
▁draft
▁models
▁invent
▁independent
▁origin
▁suggested
ym
▁rob
▁input
▁estim
▁wat
▁Laure
▁Business
▁waste
eline
▁intellig
▁campus
▁victim
ING
▁temperature
▁Thus
-day
▁Like
▁Ma
ography
▁lad
▁Johns
▁operations
ublic
▁Ol
▁till
▁datab
▁Christian
osure
▁memory
essions
▁confirmation
▁believed
▁2015
▁expectations
▁names
▁forgot
▁specifically
finity
▁Cons
▁Sa
anging
▁generation
ares
▁views
▁theme
▁Gl
▁agent
▁push
▁2016
CT
▁coffee
▁symptoms
▁competition
appy
▁eating
▁password
▁Mead
▁prem
▁faith
.3
▁quot
▁minimum
▁mainly
iers
rench
▁lock
▁driving
▁wonderful
▁slight
atically
St
▁Johnson
▁effic
▁involve
▁United
▁Adv
▁Stanford
▁Ir
▁2014
▁assigned
▁doub
▁National
▁contribute
▁adding
▁2017
itect
▁twenty
▁York
vention
▁trouble
▁covered
itter
▁articles
asc
anch
▁answers
▁tests
▁pieces
▁fed
▁topics
nown
▁bath
▁adults
sh
▁fat
▁Day
▁acknow
▁Activision
▁profit
▁recie
▁gift
▁fly
▁capacity
entially
▁anymore
▁raised
▁King
▁Services
▁president
▁bottom
arant
▁cale
▁decl
amic
icated
water
▁shop
▁beliefs
▁enhance
cohol
▁treated
AL
bal
▁East
aces
riend
rial
.m
▁resume
▁Attached
▁hoping
▁outcomes
▁eight
▁powerful
▁desk
▁tal
▁monit
atively
enced
▁Lu
▁60
▁Del
atter
amm
▁Fo
▁scale
▁!!!
mb
▁wed
▁Van
▁effectively
▁rap
▁telling
▁round
▁confidence
ov
icip
▁recru
▁commercial
▁Fig
▁park
▁Hop
uts
▁incorpor
bed
▁download
▁spot
▁underst
▁prec
ician
▁rat
▁Char
▁198
▁opened
▁Who
▁emotions
▁named
▁Min
▁Je
rey
▁TO
▁restaurant
▁booking
itz
▁....
▁Systems
▁presence
chen
▁removed
▁cancel
567
▁larger
riage
▁coordin
▁improved
▁Sun
▁diet
attle
ds
▁screens
▁Exp
▁desire
organ
▁Pol
▁eventually
▁lived
omin
sell
▁title
▁anxiety
▁ended
▁grant
▁observed
aled
rol
ades
uit
ework
upp
▁TR
▁Dun
▁Rub
▁employment
▁America
▁described
▁biggest
▁transition
▁walking
▁blog
▁requirement
▁availability
▁glass
▁Prof
▁absolute
▁assignments
▁shot
▁inqu
ault
wood
▁highest
▁exchange
▁obvious
▁Based
▁counter
▁defined
▁2013
▁resource
▁shape
▁High
▁consideration
▁religious
▁Does
▁consumers
▁scene
▁symbol
▁45
▁parties
▁advised
▁previously
▁century
▁Maybe
lim
▁external
▁AP
▁reader
▁outcome
▁nurses
▁monthly
▁vend
tenance
▁concepts
osen
▁opening
▁seek
▁resist
oles
izza
agraph
ague
▁detailed
▁thous
▁goods
▁hopefully
▁calend
▁Ear
▁performed
▁Where
▁poll
▁surface
related
▁valuable
▁circum
▁drugs
▁units
▁Kore
▁abuse
ID
▁studying
▁paying
pro
▁considering
▁rule
overed
ette
▁dinner
▁sites
tical
OM
▁chain
▁gather
lly
▁electric
xy
▁appears
▁rock
▁window
▁die
▁depos
▁onto
▁See
/201
gar
▁accident
dy
▁facilit
▁proof
itative
▁Far
estern
▁Dev
▁Home
▁subsc
etime
▁narr
▁judge
▁wood
▁possibly
▁illness
▁minute
▁personality
▁clothes
ripts
▁characteristics
▁central
▁hurt
▁players
▁Its
▁heat
ressive
▁micro
▁managers
▁recip
▁failed
▁calling
▁otherwise
▁Their
▁depression
▁jump
▁birthday
▁hes
overy
▁thr
▁unf
ulate
ET
▁bought
▁decrease
▁inspect
apore
EO
resp
ashion
▁sitting
▁Er
▁failure
▁wit
▁boys
▁Port
▁died
ocr
.e
NA
▁alcohol
uration
▁belong
▁construct
▁agg
ressed
▁describe
itution
undred
▁luck
que
la
▁length
duc
▁dyn
▁ride
▁Develop
▁Mexican
▁processing
▁accurate
▁protection
▁Singapore
PM
▁cloud
ularly
▁mig
isc
▁cook
▁pet
ero
▁engineering
▁framework
▁wa
▁explan
▁enroll
▁flight
▁holiday
▁architect
▁depending
▁graduate
▁fish
▁libr
isco
▁familiar
▁element
▁guarant
ooth
▁align
hern
▁certific
icy
▁feet
▁noted
lege
key
ception
▁stopped
▁revenue
▁ST
▁consumer
/0
ament
▁colon
▁interests
▁god
▁causing
▁Yeah
▁ideal
bon
▁World
▁phase
▁offering
▁continues
ili
▁candidate
▁predict
ocol
▁medication
utive
▁behaviors
▁Sal
▁solid
▁managed
▁stick
▁Rem
going
holders
▁loan
▁advanced
▁domain
▁raise
▁killed
▁accomplish
▁i.e
onom
▁gold
▁maintenance
▁competitive
▁restrict
grade
▁chemical
elines
▁renew
▁sector
▁colour
cient
▁official
▁President
.com
▁Mus
▁attitude
▁arrived
▁2012
xas
▁Cand
▁Being
▁procedures
orage
▁apart
▁terr
▁diss
▁welcome
win
▁interaction
▁distance
▁OK
▁button
▁vill
▁Wal
▁affects
ricul
lig
▁procedure
▁stake
▁posted
▁Ver
▁challenging
▁distribution
▁applying
▁Mark
iforn
RE
▁lifest
gery
known
▁beneficial
▁instruction
▁mur
▁selling
▁updates
▁listening
ado
▁paragraph
▁mine
▁cards
▁dele
▁cultures
icking
itney
▁Senior
▁closer
▁animal
▁Indian
aper
ett
apers
▁ethical
▁phil
▁determined
▁cancelled
▁walked
▁Okay
▁invite
iot
othing
rees
▁transaction
▁allowing
▁personally
▁pair
▁Hopefully
▁referr
▁Boy
ils
▁totally
▁je
▁tracking
▁instructions
point
....
▁recommended
▁sty
▁facility
▁reviewed
▁scenar
▁analyz
▁broken
▁Park
▁neighbor
ms
gical
▁commitment
▁Russ
▁label
▁senior
▁operation
-3
▁Stanley
▁switch
ifornia
▁trial
min
dom
▁returned
▁virt
▁plays
▁mut
▁ble
itig
▁possibility
▁cars
cdefgh
yal
arding
▁complic
▁calendar
▁supporting
▁Commun
▁sale
▁player
▁pleasure
▁hundred
▁forced
▁Mal
▁spending
▁kitchen
▁secure
phone
▁Hum
▁database
ho
50
▁expensive
▁tast
▁fees
ias
rants
▁Aer
▁Martin
roud
▁UK
▁Cape
▁district
▁id
▁homework
aration
▁Ray
▁circumst
▁worksh
▁introduced
▁messages
ishes
AC
ya
▁choices
▁Ang
▁shopping
▁Happy
▁California
▁earn
▁journal
▁i.e.
▁retail
▁Looking
porary
OS
▁engagement
▁attending
▁rich
012
-related
aser
▁findings
▁agency
uel
▁occas
▁rise
▁annual
▁internship
▁chosen
▁planned
▁Morgan
▁marriage
▁positions
ijkl
▁creates
▁facing
▁receip
▁conclud
▁tonight
▁scholars
▁charged
▁band
▁correctly
▁alternative
▁diverse
-on
▁suc
▁comprehens
▁prote
▁arrive
▁pow
▁Bow
ano
oust
▁depart
▁wealth
ula
▁satisfaction
uing
-4
▁professionals
▁fing
▁occup
▁Geor
▁smaller
▁sessions
▁implemented
▁functions
ulated
▁improving
▁re-
roy
rely
▁sentence
▁curricul
▁gar
▁French
▁dry
nel
▁emergency
▁Network
rect
▁ok
-pro
▁teen
ogle
▁climate
▁liked
▁facilities
omet
▁seven
▁Work
▁married
acking
▁homes
▁increases
▁committed
▁creation
▁released
imb
▁corporate
right
▁Facebook
▁stream
▁rein
▁camera
▁aid
▁partners
ulations
▁intended
▁friendly
▁insight
▁har
▁2011
rab
las
▁heavy
IV
▁plants
ores
▁spl
▁Dr
iant
omot
▁Having
uice
▁ath
.6
▁Par
▁Resp
ora
oda
▁tele
▁chart
obot
▁crucial
▁writer
▁secret
estic
▁PC
fl
▁College
▁components
▁cooper
▁reb
▁constantly
▁frust
▁particularly
raid
▁illust
▁relax
.9
▁Sem
▁claims
▁fra
▁Ocean
▁dollars
▁cycle
▁collected
▁brings
▁Under
▁administr
▁holding
▁prove
▁published
rence
▁incred
▁properties
▁rain
crib
▁teh
▁Dear
▁suitable
▁station
mon
oices
▁Australia
▁bound
▁greatly
level
▁motivation
wear
▁tech
▁Dar
▁quarter
obe
▁justice
itors
▁supervis
▁Direct
▁ing
▁Students
▁pricing
▁objective
▁tells
iche
icians
umber
▁Alex
▁significantly
▁Ty
▁diseases
▁Technologies
▁peers
▁species
ky
▁fashion
▁Cost
▁strategic
▁grades
ifications
▁street
▁nor
istry
▁colors
▁e-m
▁Live
isis
mates
▁bond
▁supported
▁90
▁produced
▁believes
▁States
▁instru
▁RE
▁understood
▁fields
▁Living
▁cities
▁king
▁generally
▁measures
tics
▁tree
▁discip
▁rid
lass
▁provider
▁payments
.8
▁Which
▁cogn
▁voc
sis
▁sweet
▁lessons
rise
▁lect
▁hate
▁mill
▁Da
esome
▁hall
▁amb
▁Space
▁institution
▁bul
▁domin
▁afraid
▁univers
▁reaction
▁mil
ham
▁consequences
▁partn
▁caught
rows
▁12345
▁II
▁ec
▁Fost
▁funding
worth
-C
ION
Max
▁Africa
ulty
ux
▁Ap
▁Conver
▁efficiency
▁facts
▁faster
▁despite
ama
▁upcoming
▁Instead
hy
▁approxim
tee
▁er
Robot
hot
inct
▁technologies
itute
ications
▁curriculum
▁letting
bur
▁whom
▁ye
▁prison
▁roll
▁attachment
▁vital
▁faced
▁stores
▁contains
ena
▁2010
▁errors
▁responsibilities
▁sud
▁buying
▁prompt
▁apartment
▁struggle
oma
▁plus
▁Academ
▁Hall
▁Ho
▁worse
▁proud
▁risks
ss
▁philos
▁incident
▁severe
LE
char
▁exhib
▁Ter
▁dim
▁Jew
▁lifestyle
ructure
▁spons
▁Lock
▁mouth
▁launch
lem
▁Art
▁quiet
▁criteria
iled
ander
▁workplace
▁selection
▁interpret
▁federal
▁grew
▁organized
▁Sher
▁barri
AD
▁registered
rat
▁Sub
▁=
▁reject
▁Next
sey
▁volume
.7
▁researchers
▁surgery
▁Custom
▁Two
▁attrib
rad
▁charges
▁Sho
▁USA
▁pregn
▁medicine
▁explains
▁younger
▁Fed
itate
oston
▁bringing
▁famous
▁grab
▁opinions
▁AND
▁British
▁ordered
▁Prov
▁storage
AM
umn
▁bigger
▁Japanese
▁succeed
▁fell
pends
▁moral
▁license
ae
PS
▁56
▁candidates
▁priority
▁Jul
▁PD
imately
▁scope
▁Win
▁negot
ounce
▁rand
▁Lauren
▁dram
▁register
▁slowly
▁Ralph
▁smile
▁crim
▁samples
▁config
▁setup
▁transl
▁guidance
alog
▁authors
▁Ev
▁perce
▁tickets
▁shap
uct
▁Kay
▁AD
▁entry
iam
ifts
▁bull
▁inconvenience
▁Ward
▁Russell
▁dealing
▁hur
▁pal
▁Spanish
▁authority
▁formal
▁definition
▁follow-up
▁resident
▁Boston
eper
▁happiness
nic
▁pool
▁seeking
▁participation
▁intervention
▁Manager
▁picked
▁reporting
uting
ading
▁compare
▁star
duces
▁beauty
enth
▁links
▁transportation
▁worker
▁ice
▁standing
▁smooth
▁depends
prene
▁investigation
ipped
▁PR
▁objectives
▁sudden
arian
▁signs
▁cas
▁rapid
▁Besides
▁orient
...
aint
▁mistake
▁Should
▁inn
▁cleaning
▁wild
▁numerous
▁managing
▁disorder
▁certainly
iper
▁2nd
▁occurred
▁lapt
▁contrast
▁login
▁80
▁detect
▁emotion
▁talent
lyn
▁random
rible
▁responses
▁Mountain
▁suffering
▁former
respond
▁ourselves
verty
▁Amaz
▁Dem
▁scientific
▁Fred
▁frame
▁Hil
▁reduced
▁administration
reprene
▁whose
▁childhood
raw
▁e-mail
fol
▁hence
▁advoc
▁shoot
▁Chase
▁confused
▁leaves
▁dial
-9
▁thinks
eing
▁Avery
▁Whe
rig
▁diversity
iance
▁Hut
▁poverty
▁Brother
▁bike
▁Overall
▁hyd
g.
ls
ube
▁Denn
eration
▁Gil
▁weekly
-sh
cript
nda
▁subjects
olf
anna
▁templ
▁CO
▁paint
▁award
▁advertise
▁perhaps
osite
my
▁expenses
orders
▁Pizza
▁sac
▁locations
▁fab
ugg
inary
▁approximately
▁requests
▁Express
field
▁nav
▁tag
▁interviews
▁Ken
abet
▁Sach
▁Pal
▁talks
▁snow
▁integr
pan
▁dangerous
▁logo
astics
▁Financial
▁pursue
▁Mod
utor
odies
▁cart
▁Fu
▁cast
▁criminal
▁gained
▁addressed
▁Men
▁enable
▁cance
▁hero
▁nearly
▁organizational
▁partnership
gor
col
-e
▁maximum
lines
▁library
▁dance
▁intention
elle
▁rooms
▁housing
▁NOT
▁registration
uitive
fit
issions
anes
▁IS
▁Jones
▁Ship
▁consistent
▁replacement
irty
▁truck
▁Sometimes
▁processed
▁entered
state
Co
▁kinds
▁neck
▁fif
▁Clear
▁innovation
▁recognize
▁Venus
EM
▁foods
▁Square
otle
▁sand
▁crisis
▁remaining
▁resolve
▁phen
▁Those
ronics
met
▁circumstances
▁Os
▁intelligence
earch
down
▁basically
▁analyze
▁197
▁Sant
▁Paper
:30
▁Lor
▁Throughout
▁Fargo
▁shut
▁rac
▁Key
▁vote
▁witness
▁Dec
▁purposes
▁guidelines
▁Goldman
-A
▁sides
▁largest
▁readers
rage
▁correspond
▁expression
▁dedicated
▁Nation
▁Freeze
eting
▁XM
▁Sachs
▁documentation
▁comparison
▁tone
unk
chor
▁conven
▁cab
▁achieved
▁salary
▁map
omb
▁crow
▁residents
aton
▁sea
med
heed
▁monitoring
▁1st
▁weakness
▁operating
▁throw
ductor
▁3rd
▁obtained
▁thor
▁evaluate
▁category
▁percentage
▁summary
▁twice
▁gap
▁mistakes
▁introduce
▁losing
▁represents
▁repair
▁nerv
▁doubt
▁Add
▁foundation
▁urban
▁e.
▁focuses
▁Hat
▁experim
▁Get
▁Though
▁elimin
▁discover
list
▁etc.
▁Figure
▁practical
OW
▁acts
▁officer
▁slightly
▁engaged
▁tested
▁plastic
▁introduction
▁fighting
▁sport
▁mechanism
▁compli
▁advertising
▁batter
uppies
▁bright
▁discovered
lusive
▁automatically
▁wedding
days
▁purchased
▁generate
omotive
▁196
▁involves
▁upper
▁Trans
▁Rod
▁Arab
▁channel
▁historical
▁Lockheed
▁Mills
▁keeps
▁assets
▁Fosters
abled
▁relation
▁institutions
▁suppl
▁explanation
▁Advanced
▁trend
▁integration
▁settings
cks
vest
pet
icit
ricult
▁combination
▁Lord
▁Mid
▁Regarding
▁winter
▁spring
▁vacation
▁completing
▁supports
▁Amazon
▁papers
bour
▁awesome
▁Without
▁trave
anged
▁divid
iconductor
rition
▁principles
▁bless
▁markets
opq
▁director
ront
▁Lastly
▁appreciated
▁squ
▁pulled
▁providers
▁battle
▁liber
▁Hel
arden
▁Automotive
▁infrast
urally
▁typically
▁OF
▁Brands
gal
▁island
▁doctors
▁concer
▁absolutely
▁vir
agues
▁served
▁Germany
▁weap
▁Chip
antly
▁grown
▁parking
▁technique
▁usage
▁fal
▁variables
▁relate
ato
▁crazy
▁contacted
oken
▁Make
▁movies
▁entreprene
athy
ployment
▁mal
▁reward
▁collaboration
▁Bowes
▁Sav
▁Swim
izzard
ossible
-S
▁duty
hab
▁carried
▁manufacture
▁transm
▁coverage
▁corner
▁assume
maid
▁Gar
▁od
wide
▁e.g.
▁influenced
▁Follow
▁closing
▁industrial
▁trig
▁Pitney
▁indicated
▁stim
ror
roid
▁owners
▁household
▁sets
▁Radio
▁36
yards
▁extensive
bles
▁Rubber
▁full-time
▁letters
▁motor
▁Lou
▁promotion
▁ille
orking
▁Ros
▁websites
▁soul
▁staying
▁compens
▁forces
▁receipt
▁monitor
▁rough
▁watched
▁imagine
▁2009
iration
▁unc
▁suit
▁accounting
ENT
▁John
agement
iel
uv
▁deposit
▁abilities
rimination
amin
▁Piper
▁posts
▁tab
▁fant
▁2008
aker
▁fellow
▁Wells
▁CS
▁Hon
▁exposure
▁Angus
▁vul
gent
▁atm
▁vent
▁terror
▁painting
oted
▁inventory
▁Grill
▁mort
▁suggestions
uries
▁wanting
▁artist
▁traum
iny
▁Lear
▁debt
▁Grow
▁privile
ache
iber
▁Child
▁occurs
▁Inter
lying
▁anywhere
▁neighborhood
▁taxes
ortion
▁destroy
-se
▁seat
▁Infinity
een
▁reput
▁verify
▁sav
llinger
▁magn
▁elig
▁begins
▁Only
▁35
▁mood
▁follows
idays
▁Using
▁poem
▁suic
▁Kenn
▁Blizzard
▁Technology
▁recon
▁medium
▁tight
▁punish
▁Semiconductor
ensity
▁Chipotle
▁isol
▁Stover
▁recommendation
icate
▁guests
cket
▁won
▁Mel
amba
▁certificate
▁Spray
▁Candies
▁focusing
▁Donuts
.m.
▁patterns
▁traveling
▁remains
▁Hush
▁reliable
kin'
▁Olan
▁overcome
▁Advent
▁fol
▁shoes
▁Const
▁advis
-g
▁burn
▁sequ
▁Jaff
▁pip
▁Adobe
rounds
▁none
.D
▁Puppies
▁Scripts
▁hire
▁strict
men
ole
▁solving
▁Bank
▁cognitive
▁Dunkin'
▁bedroom
▁flo
▁extract
▁Clearwater
▁stood
▁laugh
▁Bollinger
▁stakeholders
▁Shipyards
▁JPM
▁mountain
▁Berry
▁approaches
▁ends
▁organisation
iry
▁nar
▁answered
▁70
▁sla
▁Newell
-5
▁HR
▁Swimwear
▁manufacturing
▁Sunrise
being
▁Juice
▁whenever
▁Sum
iture
▁portion
▁resolution
▁Jaffray
▁capable
▁perman
▁Rubbermaid
▁JPMorgan
▁finance
using
▁disappoint
▁scan
▁Sails
▁Lead
▁rot
▁Evers
rical
IP
▁Sam
▁loyal
▁veget
▁remote
▁expertise
▁speaker
▁2007
▁billion
▁obst
▁stuck
▁Inform
▁psychological
▁lie
▁Despite
▁committee
▁installed
▁cup
▁Miss
▁Jamba
night
▁consumption
▁faculty
▁Year
▁furn
▁Homes
▁legis
▁atmosp
▁reminder
aco
▁kick
▁Paul
▁Eversource
▁reviews
▁referred
▁pharm
▁Ann
▁oblig
▁Note
▁differently
▁liqu
▁Ok
▁Mac
heet
▁spect
▁brands
▁electronic
▁bathroom
▁Jer
cil
▁wearing
▁Brothers
▁joint
eries
:00
ka
▁output
iro
▁Depot
▁anyway
gorith
▁trees
arently
▁reasonable
unction
▁breath
▁menu
▁ads
▁Fort
20
▁Twitter
▁trained
▁extension
▁studied
▁exposed
▁Spect
▁Sol
▁dropped
▁Internet
▁stri
▁hypothes
▁philosoph
▁Lines
▁statements
how
fast
▁drawing
▁mand
▁domestic
▁centre
▁joy
rics
▁grate
▁impacts
▁Social
▁completion
▁Mad
▁connections
▁superv
▁hom
▁Shopping
▁volunteer
▁gotten
pee
▁professor
▁2019
aming
oon
hent
▁matters
▁objects
ifies
▁hospit
▁extent
▁attended
▁Hope
▁rub
▁conver
▁meal
▁swim
▁Pay
EL
▁agricult
▁script
▁extended
wall
▁arms
▁elev
▁convenient
▁exciting
▁flat
▁describes
▁adequ
▁linked
athe
▁honor
▁secondary
▁paramet
▁define
▁CD
▁panel
▁difficulty
▁TRW
▁Funds
urig
▁formed
▁surprised
▁wire
soft
▁recognized
▁der
tes
▁carbon
▁likes
▁cant
▁co-
▁Educ
ih
▁Call
otyp
▁discussing
hetic
cles
▁demonstrate
▁theories
▁Cam
anda
▁resolved
▁ON
▁mode
▁assistant
▁beat
▁stronger
▁infrastructure
-th
CD
▁Ryland
▁sole
▁phones
▁vendor
▁thesis
▁Nor
outs
▁2006
▁Lind
▁tired
▁seller
▁recommendations
▁worried
▁vulner
▁Surgical
▁Anchor
▁defend
▁functional
▁Devices
▁Zoo
▁ethnic
▁harder
▁prin
▁Adventures
▁123456789
eric
▁performing
▁Mexico
-P
mond
▁installation
▁Lone
▁Rel
▁Keurig
▁joined
▁Seeds
▁demonstrated
loy
▁Mil
▁syn
▁permission
▁spiritual
▁laptop
agram
▁rul
▁discrimination
▁Cyp
abetes
▁algorith
▁politics
oration
ris
▁regulations
▁Sirius
10
▁Use
▁impossible
▁pre-
▁stable
mm
oustics
▁Steak
OL
▁intent
▁expressed
oman
▁Spectrum
▁preparation
▁strongly
▁estimate
▁perception
▁ast
olic
▁screenshot
▁injury
▁Bas
while
▁Share
▁ongoing
lette
▁Kar
▁possess
▁normally
▁estimated
▁reducing
▁metal
-free
▁Again
▁recorded
▁sugar
▁PT
▁athlet
▁colleagues
▁Steakhouse
▁reduction
▁Hence
▁Burpee
▁false
▁maintaining
▁Atlas
road
▁tow
▁Intuitive
/18
▁Soda
▁supervisor
▁Elect
▁concentration
▁Sym
pected
▁Ange
▁fulfill
▁recovery
▁suggests
lla
asket
▁scores
▁mad
▁discussions
▁bac
▁Cypress
▁outd
▁bow
quality
▁warrant
ida
ingu
▁deadline
▁officers
gs
▁Unify
ibl
▁Acoustics
Wave
▁cong
▁Plastics
▁Gree
prise
▁grateful
▁alloc
▁Id
▁platforms
▁fan
actions
▁strengths
iat
▁surrounding
orter
▁telev
▁shock
▁enth
ensions
▁privacy
MS
▁saved
▁encouraged
▁immigrants
▁nuc
▁Tom
▁Dennison
▁greatest
ographic
▁sky
AY
▁Person
▁bact
▁split
▁FreeWave
▁Mer
▁folder
under
antic
▁Morning
rete
▁argue
nam
▁effectiveness
ixt
▁variable
▁lady
▁sufficient
▁dreams
▁overw
▁withd
ipp
▁advent
▁Lat
▁stere
uracy
pace
▁experiencing
▁Jack
▁issued
▁doc
▁Boyer
▁sentences
▁sustainable
▁stages
▁forest
▁acid
▁opposite
▁Indust
▁upset
▁closely
▁vary
erate
▁utilize
▁guarantee
▁indicate
▁presents
▁recall
star
▁evol
▁turning
▁generated
▁NewCo
▁excess
▁hang
▁favour
▁hyper
▁France
▁Check
▁reviewing
▁immediate
▁buildings
▁thorough
▁General
▁structures
▁Hill
▁visa
▁flexible
▁component
▁requesting
▁choosing
itud
▁advantages
ona
rid
▁revolution
▁categories
outhern
▁peer
▁tough
▁concerning
adv
▁Phill
▁recruit
▁protein
▁styles
▁Lloy
▁soldiers
▁interactions
▁ultimately
-min
oked
ington
▁hesitate
▁prospect
▁Den
▁State
▁Dav
ev
▁fault
▁du
▁auto
arsh
▁2005
▁discl
▁difficulties
▁scenario
▁poly
▁scholarship
▁Earth
▁empt
▁fuel
▁Everyone
▁memories
▁bird
▁simpl
▁hiring
▁fort
▁evil
▁critic
▁Below
▁turns
▁Research
▁iron
▁experts
▁incorrect
rich
▁soil
▁Plan
▁appearance
▁command
▁designs
rance
▁desired
▁dogs
▁Dan
▁organic
▁Microsoft
▁potentially
▁accuracy
▁calm
▁sin
bing
cription
▁unlike
▁anytime
▁bodies
▁ratio
▁phenomen
▁workshop
▁infect
▁suffer
▁stating
mart
▁atmosphere
▁motion
▁mixed
▁agents
▁ther
▁Sel
▁alt
▁drinking
▁finds
rael
▁??
▁multi
▁forth
▁thousands
▁innovative
▁roof
▁deeper
ints
▁convenience
▁Director
▁compliance
▁pure
/2018
▁duties
▁chair
▁boost
▁preparing
▁Disney
▁PO
▁coach
▁audit
▁sees
▁behalf
▁acting
▁resulting
▁Conf
▁Western
▁reservation
▁Expl
▁portfol
▁somewhere
user
▁vehicles
▁struggling
▁indicates
▁combined
▁airport
▁booked
▁Ins
▁football
▁disag
▁lease
▁accordingly
ilty
bits
▁authent
ala
▁WH
asy
▁outstanding
▁whereas
▁mole
▁motivated
▁CA
▁consists
▁confusion
▁relatively
▁survive
▁houses
▁distract
iest
▁Nik
▁clothing
▁layer
▁controlled
▁lecture
▁regardless
▁runs
▁Customer
▁physically
agers
Corp
UT
-cent
▁routine
▁trad
lined
▁Prog
▁industries
▁membership
oria
▁scared
▁worst
▁4th
ocking
▁contribution
cord
cific
▁retain
▁agencies
▁edit
▁Po
▁fro
uls
▁reputation
▁Development
▁frequently
▁resulted
mes
▁Google
▁sme
▁south
-6
▁serving
ologist
▁usual
▁Israel
▁ware
▁conversations
▁resistance
▁48
▁Sil
▁Ster
▁Nest
EF
▁artists
▁diagnosis
▁Est
▁clarify
▁branch
-minute
racy
▁Law
▁pending
▁listing
▁estate
▁native
▁Keep
-making
▁seconds
▁ending
▁inspection
ounced
▁Company
▁spoken
▁consent
▁2004
aph
inent
▁CV
▁Ora
▁Muslim
▁merch
▁acknowledge
▁preferred
IM
▁rank
▁computers
▁loves
▁bon
▁blank
▁pushed
▁German
cience
▁2000
▁heads
▁conserv
▁observation
▁reform
▁television
amental
▁Bru
▁unknown
▁imper
▁ring
▁yours
▁Upon
▁confidential
▁questionna
▁Def
acing
▁margin
▁template
rst
▁Vir
▁PetM
▁Take
▁lets
▁lights
▁enthus
▁involvement
▁promise
▁replaced
▁enforce
▁submission
▁handling
istan
-hour
▁breakfast
▁productivity
adays
▁A.
▁CP
gypt
idden
▁executive
▁Never
▁Look
▁PetMeds
▁Game
▁Care
▁yellow
▁cere
▁intel
abul
▁plate
▁manual
▁carefully
▁proven
uses
▁gramm
▁Oracle
▁repro
semb
▁Ben
rome
▁moments
▁egg
anned
▁ethics
▁loud
▁cod
▁Table
▁trends
certain
▁languages
▁depth
advant
▁tries
▁taste
▁Asia
▁portal
▁absor
▁nations
▁conscious
▁illegal
▁passing
▁Ham
▁zone
▁zero
▁measured
Ex
▁asks
▁didnt
ito
▁susp
rick
▁killing
▁habit
▁Text
▁Cong
▁pollution
working
▁Women
▁curious
▁basket
▁dependent
▁substant
▁iP
▁meat
▁contacting
▁Hilton
onna
▁overwhel
▁trib
▁divided
ioned
ella
▁dynamic
owing
▁doors
teen
▁nervous
▁holds
▁sight
ventions
▁nutrition
▁existence
▁blind
▁Tal
▁implementing
▁satisfied
▁Project
.00
▁expans
▁diabetes
▁sections
cht
▁Ref
▁Mich
▁32
▁visiting
▁comprehensive
▁statistics
▁revised
▁thick
strom
▁cyber
▁mas
▁height
▁navig
ests
▁trail
▁joining
icted
▁Lore
-mon
▁representative
rating
▁Rob
▁walls
▁forever
▁apps
▁asset
▁IP
▁radio
▁era
▁attendance
▁500
▁Det
▁buyer
▁CEO
▁explaining
▁appeared
▁YOU
▁Quest
▁refers
▁firms
▁Vict
▁ingred
othe
▁Korea
xon
▁synt
▁transferred
rep
▁invoices
▁pump
▁pil
▁inspired
OD
▁engaging
igen
▁manip
otic
▁@b
ums
ria
▁continuous
▁displayed
lets
inet
ipl
▁5th
▁portray
▁persons
▁Mont
▁marked
▁transactions
▁guard
▁Op
▁fundamental
▁route
▁caring
▁amounts
▁PS
▁canceled
▁Flor
iy
▁massive
ams
▁fewer
▁tiss
▁substance
hemat
▁employer
▁revealed
▁personnel
▁subscription
▁Bud
▁sir
▁deals
▁architecture
rian
▁shar
▁shel
rategy
▁J.
▁sometime
rock
▁sensitive
▁Nic
▁Egypt
▁patience
gged
▁disadvant
▁tables
▁tea
▁slaves
▁victims
eem
ishing
▁M.
CE
mental
▁Actually
▁investigate
aid
▁perfectly
ruption
▁investors
▁innoc
lock
▁bare
▁ages
aks
uqu
RL
-M
▁eB
rain
▁funny
▁placement
▁surve
▁integrated
▁perspectives
▁Mean
-off
▁Nab
▁vacc
▁high-quality
▁Chev
▁programming
-class
▁overse
▁miles
▁fost
▁contem
▁Cre
▁breast
▁McA
asp
lor
▁networks
▁ven
akers
▁Texas
▁recognition
▁achievement
-of
▁Alleg
▁slavery
▁participating
urning
▁MS
active
▁SO
▁SS
▁gro
▁fest
▁returns
▁uncom
▁entirely
gas
▁elder
▁societ
▁suicide
▁filter
▁edge
12
▁strengt
ahoo
▁Nord
va
▁searching
assion
▁stands
▁portfolio
▁paperwork
iform
duate
▁amend
▁anticip
cor
▁adoles
▁typical
yne
▁escape
▁figures
▁frequency
▁epis
▁mic
▁protocol
icycle
▁repeated
▁noise
▁fabric
▁capabilities
▁crew
pat
▁Data
▁exists
▁ensuring
▁machines
▁broke
▁regions
isson
▁boss
▁attacks
▁stre
▁Intel
▁chronic
▁shad
▁pra
▁engineer
enger
▁actively
▁boxes
▁announce
▁billing
▁saving
US
▁flag
▁arrest
uine
▁Kro
▁incent
▁degrees
▁penal
ogen
▁regularly
▁module
▁meaningful
▁murder
▁crop
▁designer
▁environments
▁stret
▁empty
▁Sl
▁enem
▁holidays
IG
▁Bre
▁rely
▁transp
▁drivers
▁racial
▁delete
▁spaces
▁creativity
urant
▁channels
▁evident
▁Wind
▁replied
▁campaigns
▁segment
▁Design
▁seriously
▁landsc
▁ow
uk
what
▁supplies
▁educated
▁san
▁Republic
▁Cour
-level
itudes
▁ocean
▁Jeff
▁disorders
ppes
▁intellect
▁passionate
▁Exxon
▁initiative
▁shipped
▁checks
aret
▁plot
▁capture
▁artwork
net
▁battery
▁virtual
▁exceed
▁acknowled
▁surprise
EC
▁DNA
▁quantity
▁vast
▁fourth
▁anger
▁hat
▁recieved
▁clinic
▁indeed
▁wid
▁angry
▁medications
▁faces
▁34
▁arrival
▁194
▁Costco
▁approve
▁utilized
illy
▁AI
▁Ca
isp
hers
▁Chevron
▁Ritz
▁references
▁Right
▁mel
▁Schwe
▁responded
rett
▁Management
▁chest
▁Av
▁Magn
▁Carol
▁Nabisco
▁river
▁nine
▁Rev
▁conflicts
▁purchasing
▁acceptance
▁visited
▁shirt
▁stayed
▁covers
▁mir
anges
▁initially
-month
ystem
▁songs
▁cheap
▁femin
▁lean
▁printed
▁D.
▁Yahoo
▁Century
▁temporary
▁crimes
▁England
▁primarily
▁Requ
▁alive
▁identifying
▁codes
▁CR
▁cutting
▁Max
▁Ell
▁careful
▁Di
▁eBay
▁village
▁permanent
▁complicated
▁continuing
▁gent
▁uploaded
▁representation
▁Abb
▁shipment
▁arts
▁Asian
inx
▁Still
▁milk
▁employed
▁rural
▁trick
▁originally
▁plenty
▁tips
▁weird
emb
▁verbal
▁upgrade
▁FedEx
▁Hong
▁1,
▁Super
▁gym
▁storm
aked
▁army
▁chick
illard
omy
▁Louis
inations
▁minds
▁agenda
▁beach
▁vib
▁banks
▁Krist
▁friendship
▁hydro
top
▁outs
▁seg
▁e-
▁ease
▁signature
▁Mat
▁falls
▁solar
▁obviously
▁Les
▁analys
▁Love
▁**
▁infection
▁Jud
▁entering
▁liquid
▁8th
▁Rich
▁brows
▁tro
▁viewed
▁Rock
▁wine
▁violent
▁Center
▁Bern
liest
▁uncle
▁departments
▁communications
▁Know
▁learners
▁traits
oe
▁CH
craft
▁Franc
▁tail
▁hunt
▁qualified
▁lux
▁vit
11
▁distinct
eless
▁meantime
▁invitation
▁6th
▁occasion
▁therapist
▁habits
IL
alle
▁195
▁division
▁convin
▁reflection
▁Cath
▁Equin
▁Word
▁Plant
▁timeline
▁fle
▁Morningstar
▁fruit
▁2003
▁restaurants
▁persu
▁phr
▁copies
▁Class
▁Kraft
▁oxy
▁subs
itting
iner
▁acceptable
▁applicable
▁prevention
▁exception
za
icare
▁memor
▁driven
▁craft
▁Syn
eter
▁Cy
▁Lloyds
▁jack
▁Test
▁inequ
▁kiss
▁Russia
merce
▁backup
▁Boeing
▁principle
▁observe
▁Equinix
▁Such
▁gate
▁emailed
▁CB
ads
agon
▁Kroger
▁examination
▁struggles
pass
▁AT
ching
roke
▁Mov
▁embra
▁withdraw
▁Tur
▁Viet
▁achieving
▁sacr
oned
▁Human
▁Fam
.D.
▁ASAP
▁Institute
VE
▁muscle
▁defense
▁Savoy
rency
▁operate
▁Non
▁laun
▁chances
▁beg
▁accessible
▁obstac
▁Bir
▁concrete
ondon
▁About
▁equality
▁Eve
▁themes
▁Comcast
▁barriers
abulary
▁descript
undo
orney
▁destination
charge
▁significance
▁disagree
▁psychology
arents
▁bias
▁smoking
▁territ
▁AC
▁remark
orship
▁Nikon
adata
▁steel
▁Schweppes
▁pin
▁Mag
▁expansion
▁shortly
▁ru
▁deeply
itigroup
▁toler
▁75
▁Citigroup
▁absence
▁strange
▁windows
▁flav
▁B.
▁Radisson
▁2001
▁demands
▁Bet
rands
▁superior
▁decreased
▁Food
▁Was
▁gonna
aken
▁shoulder
▁Hist
▁Ser
▁7th
▁dear
▁impression
▁improvements
▁everybody
▁flood
▁tact
▁magaz
▁row
gu
▁competitors
▁genuine
▁eligible
▁Client
▁invited
▁everywhere
isted
▁rational
best
▁facilitate
▁Lake
▁rom
▁Start
▁publish
▁disability
▁Ans
IR
▁Obis
▁north
▁Professor
▁examine
iated
▁association
-spe
▁Exper
▁shit
isters
▁adopted
▁Nordstrom
▁21st
▁Bible
▁theore
▁transf
berg
▁root
▁Ecol
▁neither
▁Xil
ila
umin
▁posting
▁alter
anon
▁Ecolab
ocracy
▁hung
esity
mother
▁Xilinx
▁Usually
▁somewhat
▁termin
▁planet
▁Schl
▁Spanx
▁affordable
▁thin
▁London
ether
▁promoting
▁NY
coa
▁brown
▁rig
▁Phil
▁ancient
▁Nuc
▁newsp
▁bags
▁Power
▁electricity
▁Sk
▁notification
▁PDF
▁Norm
▁travelling
inder
▁Naut
▁perceived
▁influences
▁Jes
▁Sheraton
▁homeless
fe
▁Product
▁tall
▁powers
▁limits
▁signal
▁subt
▁anti
▁Otherwise
▁commission
▁Fall
▁Service
▁hypothesis
▁philosophy
oty
▁square
Cap
▁premium
▁Allstate
▁operational
▁organis
▁lies
▁S.
▁decades
▁farmers
▁strengthen
▁Count
▁Back
mentioned
▁falling
taining
-8
▁Associ
▁tun
▁thats
▁timely
▁bear
▁graduation
▁mathemat
▁Nautica
▁asp
▁millions
▁garden
▁proc
▁Govern
▁Luc
▁hosting
-T
▁films
-re
▁physician
▁Omn
▁cha
▁visits
▁principal
▁damaged
▁counseling
lie
▁orientation
!!
liers
▁convey
▁legs
▁narrative
▁Iss
▁Nestle
▁uniform
▁rental
▁assemb
▁escal
▁delic
▁30th
▁vocabulary
▁Kong
▁circle
▁addresses
▁affecting
▁decline
▁part-time
irts
bre
▁worldwide
▁supplier
oug
▁honestly
▁inner
▁qualities
▁meals
▁shares
▁Secondly
▁2002
▁Kim
▁statist
▁cooking
▁wont
mnopq
▁developer
▁Frank
▁importantly
inar
▁necessarily
▁AerCap
▁Isl
cked
▁commonly
▁aims
▁Children
▁Es
▁printing
▁fasc
nat
RI
ston
bestos
▁visible
▁boat
▁antib
▁border
▁stability
graduate
▁troubles
▁tank
▁Ester
▁suggestion
▁protected
▁FY
▁puts
▁debate
urger
▁Find
▁oxygen
ael
▁organize
▁uncertain
▁appeal
▁empower
▁recording
▁limitations
ograp
▁cous
▁wise
▁ABC
▁suddenly
▁smoke
▁keyword
▁Kenworth
▁Groupon
▁highlighted
▁wave
▁spreads
▁adequate
▁Valley
born
▁spr
aud
▁fans
▁Ly
▁finger
▁teeth
▁earliest
-r
▁punishment
▁breaking
eness
▁P.
kers
▁attempts
▁decor
▁Following
▁followers
▁Vect
▁casual
▁Ox
▁expecting
▁export
▁audio
sequently
▁Organ
▁Low
▁represented
▁Education
▁wheel
▁Rose
▁trading
15
▁heavily
▁generations
gers
oga
▁racism
▁accommodate
▁pill
▁divor
▁Remember
▁A234
▁connecting
ocratic
▁producing
▁smell
▁:)
▁encounter
▁abst
▁election
▁minimal
▁unre
▁que
▁Brad
▁harmful
oral
▁infl
▁exploring
▁incorporate
cies
▁decision-making
rier
perate
▁SC
-hand
iences
▁Tor
fall
▁entertainment
▁fract
▁stom
▁Exam
▁300
▁Tem
▁SP
▁vot
▁attain
▁tu
▁Phillips
▁movements
▁warehouse
▁centers
▁Florida
▁workforce
▁mindset
▁editing
▁conducting
▁diagnosed
olph
▁electrical
▁sen
▁recy
▁Hol
▁mac
▁OR
▁Bark
▁pleased
▁scientists
-dep
▁oral
▁participated
▁Teacher
▁referring
▁Weyer
osh
▁narrow
▁apologies
▁coast
▁cooperation
GB
▁bills
▁slides
unior
▁Account
▁convention
▁Mem
▁Onanon
▁Lum
▁assessments
▁efficiently
▁Coll
▁sleeping
ingly
▁insights
▁Walg
▁unex
uster
isition
▁incredible
▁drinks
▁immigration
▁impacted
▁slide
▁counselor
ffective
▁Exel
▁deploy
▁ownership
▁productive
▁List
▁directions
rates
▁column
▁reflected
ighter
▁dil
mate
onic
▁Brand
▁van
▁bottle
▁compensation
▁Event
▁hardware
▁offices
▁parameters
▁query
▁Mur
▁terrible
▁Sure
aine
▁Vectren
▁ped
rations
ilding
▁moves
▁veter
▁bridge
▁pride
▁Form
-B
van
▁Bill
▁formation
▁communicating
▁unem
case
▁instructor
▁hidden
▁Cle
-like
▁technological
▁scheduling
▁vs.
▁decent
▁DO
▁behavioral
▁33
writ
▁designing
▁scream
isms
▁qualitative
▁192
▁Ryder
▁integrity
▁Cord
▁Buzz
▁independence
▁Team
▁shooting
▁granted
▁Vis
▁genetic
alogy
▁bother
ste
▁complaint
▁Bruker
ller
odo
▁universities
▁molec
▁fairly
▁tutor
▁cow
ador
▁vo
▁stead
▁NO
▁Jose
▁lovely
▁Within
LC
look
▁flash
▁refuge
tt
encing
▁regional
▁ou
▁Water
▁thousand
-567
▁index
▁weapons
▁q
▁treatments
▁Aram
▁reimb
bots
▁participant
▁hide
▁bacteria
▁Domin
elling
ogue
▁widely
ady
▁Xfinity
▁factory
ergan
▁Rand
▁enjoying
▁alarm
West
▁Ash
fee
▁fake
▁Laser
▁Offic
uals
▁dow
Life
theless
▁Sand
▁API
▁attitudes
iability
zil
▁bread
mar
▁profits
▁marks
▁targeted
ola
▁hospitals
Smart
▁dash
jian
ibur
-7
▁contracts
▁trauma
▁layout
▁Synops
▁directed
▁fitness
ga
ixter
▁interventions
▁CT
▁Ze
▁jeans
▁SH
izio
corp
▁Luci
apress
▁Gap
▁hell
uss
▁relates
▁pointed
▁owned
-we
lac
▁arguments
▁Engine
acks
▁Metapress
ran
▁Anixter
▁wake
▁loving
ours
iah
▁raw
pak
▁furniture
Stop
▁@B
-D
▁Given
▁relative
▁Life
▁Becht
▁Later
▁serves
▁demonstrates
▁neut
▁PetSmart
Rock
▁enrolled
▁Cray
▁equally
▁Mass
▁Master
▁fantastic
▁visitors
plete
▁excus
▁differ
▁reset
▁meets
▁Starz
▁celebrate
▁Telem
▁Whether
▁defect
▁dish
Bank
athered
ieve
iburton
▁danger
Box
▁Shiro
▁cream
▁questionnaire
▁Mys
phones
